0010
0002
0004
0004
1000
0010
0800
5fff
0020
0003
0008
6f00
7fff
000c
5fff
001c
5b10
6b40
0022
6e00
0016
2a00
0500
001d
0002
0020
0d40
7fff
6c04
7fff
0800
0084
6de0
0300
0040
0010
0004
0e00
0004
000f
5dff
0004
0016
3160
1500
0002
6e00
001a
6944
0020
0008
0010
0003
7e40
001a
0006
0014
002a
0010
7fff
0800
7fff
0008
1f32